unsigned char _content_model_tflite[] = {
  0x20, 0x00, 0x00, 0x00, 0x54, 0x46, 0x4c, 0x33, 0x00, 0x00, 0x00, 0x00,
  0x14, 0x00, 0x20, 0x00, 0x1c, 0x00, 0x18, 0x00, 0x14, 0x00, 0x10, 0x00,
  0x0c, 0x00, 0x00, 0x00, 0x08, 0x00, 0x04, 0x00, 0x14, 0x00, 0x00, 0x00,
  0x1c, 0x00, 0x00, 0x00, 0x8c, 0x00, 0x00, 0x00, 0x0c, 0x01, 0x00, 0x00,
  0xe8, 0x08, 0x00, 0x00, 0xf8, 0x08, 0x00, 0x00, 0x40, 0x17, 0x00, 0x00,
  0x03, 0x00, 0x00, 0x00, 0x01, 0x00, 0x00, 0x00, 0x04, 0x00, 0x00, 0x00,
  0xca, 0xf6, 0xff, 0xff, 0x0c, 0x00, 0x00, 0x00, 0x1c, 0x00, 0x00, 0x00,
  0x3c, 0x00, 0x00, 0x00, 0x0f, 0x00, 0x00, 0x00, 0x73, 0x65, 0x72, 0x76,
  0x69, 0x6e, 0x67, 0x5f, 0x64, 0x65, 0x66, 0x61, 0x75, 0x6c, 0x74, 0x00,
  0x01, 0x00, 0x00, 0x00, 0x04, 0x00, 0x00, 0x00, 0x68, 0xff, 0xff, 0xff,
  0x0a, 0x00, 0x00, 0x00, 0x04, 0x00, 0x00, 0x00, 0x08, 0x00, 0x00, 0x00,
  0x6f, 0x75, 0x74, 0x70, 0x75, 0x74, 0x5f, 0x30, 0x00, 0x00, 0x00, 0x00,
  0x01, 0x00, 0x00, 0x00, 0x04, 0x00, 0x00, 0x00, 0x9e, 0xf7, 0xff, 0xff,
  0x04, 0x00, 0x00, 0x00, 0x0d, 0x00, 0x00, 0x00, 0x69, 0x6e, 0x70, 0x75,
  0x74, 0x5f, 0x6c, 0x61, 0x79, 0x65, 0x72, 0x5f, 0x39, 0x00, 0x00, 0x00,
  0x03, 0x00, 0x00, 0x00, 0x5c, 0x00, 0x00, 0x00, 0x2c, 0x00, 0x00, 0x00,
  0x04, 0x00, 0x00, 0x00, 0xb8, 0xff, 0xff, 0xff, 0x0e, 0x00, 0x00, 0x00,
  0x04, 0x00, 0x00, 0x00, 0x13, 0x00, 0x00, 0x00, 0x43, 0x4f, 0x4e, 0x56,
  0x45, 0x52, 0x53, 0x49, 0x4f, 0x4e, 0x5f, 0x4d, 0x45, 0x54, 0x41, 0x44,
  0x41, 0x54, 0x41, 0x00, 0xdc, 0xff, 0xff, 0xff, 0x0d, 0x00, 0x00, 0x00,
  0x04, 0x00, 0x00, 0x00, 0x13, 0x00, 0x00, 0x00, 0x6d, 0x69, 0x6e, 0x5f,
  0x72, 0x75, 0x6e, 0x74, 0x69, 0x6d, 0x65, 0x5f, 0x76, 0x65, 0x72, 0x73,
  0x69, 0x6f, 0x6e, 0x00, 0x08, 0x00, 0x0c, 0x00, 0x08, 0x00, 0x04, 0x00,
  0x08, 0x00, 0x00, 0x00, 0x0c, 0x00, 0x00, 0x00, 0x04, 0x00, 0x00, 0x00,
  0x13, 0x00, 0x00, 0x00, 0x6d, 0x69, 0x6e, 0x5f, 0x72, 0x75, 0x6e, 0x74,
  0x69, 0x6d, 0x65, 0x5f, 0x76, 0x65, 0x72, 0x73, 0x69, 0x6f, 0x6e, 0x00,
  0x0f, 0x00, 0x00, 0x00, 0xd8, 0x07, 0x00, 0x00, 0xd0, 0x07, 0x00, 0x00,
  0xbc, 0x07, 0x00, 0x00, 0x94, 0x07, 0x00, 0x00, 0x44, 0x07, 0x00, 0x00,
  0x34, 0x03, 0x00, 0x00, 0x24, 0x02, 0x00, 0x00, 0xd4, 0x00, 0x00, 0x00,
  0xcc, 0x00, 0x00, 0x00, 0xc4, 0x00, 0x00, 0x00, 0xbc, 0x00, 0x00, 0x00,
  0xb4, 0x00, 0x00, 0x00, 0x94, 0x00, 0x00, 0x00, 0x74, 0x00, 0x00, 0x00,
  0x04, 0x00, 0x00, 0x00, 0x7e, 0xf8, 0xff, 0xff, 0x04, 0x00, 0x00, 0x00,
  0x60, 0x00, 0x00, 0x00, 0x0c, 0x00, 0x00, 0x00, 0x08, 0x00, 0x0e, 0x00,
  0x08, 0x00, 0x04, 0x00, 0x08, 0x00, 0x00, 0x00, 0x10, 0x00, 0x00, 0x00,
  0x28, 0x00, 0x00, 0x00, 0x00, 0x00, 0x06, 0x00, 0x08, 0x00, 0x04, 0x00,
  0x06, 0x00, 0x00, 0x00, 0x04, 0x00, 0x00, 0x00, 0x01, 0x00, 0x00, 0x00,
  0xeb, 0x03, 0x00, 0x00, 0x0c, 0x00, 0x18, 0x00, 0x14, 0x00, 0x10, 0x00,
  0x0c, 0x00, 0x04, 0x00, 0x0c, 0x00, 0x00, 0x00, 0x70, 0x46, 0xa2, 0x0a,
  0xe4, 0x39, 0x6d, 0x06, 0x02, 0x00, 0x00, 0x00, 0x02, 0x00, 0x00, 0x00,
  0x04, 0x00, 0x00, 0x00, 0x06, 0x00, 0x00, 0x00, 0x32, 0x2e, 0x31, 0x39,
  0x2e, 0x30, 0x00, 0x00, 0xea, 0xf8, 0xff, 0xff, 0x04, 0x00, 0x00, 0x00,
  0x10, 0x00, 0x00, 0x00, 0x00, 0x00, 0x00, 0x00, 0x00, 0x00, 0x00, 0x00,
  0x00, 0x00, 0x00, 0x00, 0x00, 0x00, 0x00, 0x00, 0x06, 0xf9, 0xff, 0xff,
  0x04, 0x00, 0x00, 0x00, 0x10, 0x00, 0x00, 0x00, 0x31, 0x2e, 0x31, 0x34,
  0x2e, 0x30, 0x00, 0x00, 0x00, 0x00, 0x00, 0x00, 0x00, 0x00, 0x00, 0x00,
  0x60, 0xf8, 0xff, 0xff, 0x64, 0xf8, 0xff, 0xff, 0x68, 0xf8, 0xff, 0xff,
  0x6c, 0xf8, 0xff, 0xff, 0x32, 0xf9, 0xff, 0xff, 0x04, 0x00, 0x00, 0x00,
  0x40, 0x01, 0x00, 0x00, 0x81, 0x64, 0xb1, 0x28, 0x03, 0xa8, 0x03, 0xaa,
  0x7f, 0xfd, 0x69, 0x35, 0x7f, 0x1d, 0x4d, 0xd3, 0x81, 0xe8, 0x0e, 0x63,
  0x85, 0x37, 0x7f, 0xa6, 0x4d, 0x11, 0x4a, 0x26, 0x81, 0xcc, 0x7f, 0x53,
  0x14, 0x15, 0x32, 0xde, 0x13, 0xec, 0x7f, 0x08, 0xd8, 0xec, 0xf1, 0x92,
  0x81, 0x8a, 0x16, 0x52, 0x7f, 0x09, 0x7f, 0x08, 0x39, 0x99, 0x0c, 0xab,
  0x02, 0xa8, 0x7f, 0x09, 0xb4, 0xf6, 0x69, 0x7f, 0x06, 0x7f, 0x01, 0x01,
  0xbd, 0x02, 0xc5, 0x15, 0x7a, 0x7f, 0xe5, 0xca, 0x06, 0x7f, 0xc4, 0x0e,
  0x7f, 0x0b, 0xa8, 0xb0, 0xf8, 0x6b, 0x5d, 0x7f, 0x4f, 0xe4, 0x20, 0xc9,
  0x81, 0x8d, 0xa6, 0x7f, 0x01, 0xd3, 0xc7, 0xff, 0x06, 0xbb, 0x81, 0x88,
  0x25, 0xf4, 0xd3, 0x7f, 0x6c, 0x0a, 0x1f, 0x7f, 0x05, 0x95, 0x4e, 0xd3,
  0x22, 0x1f, 0x35, 0x81, 0x8f, 0x0b, 0x71, 0x7f, 0x10, 0x3f, 0x0e, 0x81,
  0x4c, 0x1d, 0x32, 0xce, 0xef, 0x95, 0x81, 0x4e, 0x91, 0xf1, 0x39, 0x81,
  0x7f, 0xca, 0x1c, 0x7e, 0xfd, 0x7f, 0xf2, 0x25, 0xd8, 0xff, 0xd8, 0x39,
  0xda, 0xcb, 0x81, 0xdb, 0x5f, 0xfb, 0xea, 0x81, 0xf8, 0x71, 0x81, 0x5b,
  0x99, 0xda, 0x01, 0x7f, 0xd6, 0x08, 0x8b, 0x45, 0xfe, 0x81, 0xa9, 0x60,
  0xf1, 0x7f, 0x2a, 0x5c, 0x61, 0x5a, 0x7f, 0x33, 0x08, 0x7f, 0x17, 0x81,
  0x5c, 0xf0, 0x81, 0x32, 0x46, 0x6c, 0x6d, 0x81, 0x0a, 0xfe, 0xa5, 0x70,
  0xdd, 0xfe, 0x7f, 0xd8, 0x0b, 0x7f, 0x13, 0x4e, 0x57, 0x08, 0x12, 0xa3,
  0x81, 0x04, 0x85, 0x52, 0xc2, 0xca, 0x11, 0x7f, 0x7d, 0x42, 0x7f, 0x92,
  0x37, 0x7f, 0x16, 0x6d, 0xcf, 0xff, 0x7f, 0xdb, 0x5a, 0x69, 0x2c, 0x81,
  0xf1, 0xd9, 0x27, 0x4a, 0x01, 0x7f, 0xbd, 0x28, 0x2f, 0x3e, 0x7f, 0x0b,
  0xca, 0xa2, 0x00, 0x81, 0xd5, 0x97, 0xe4, 0x94, 0x22, 0x47, 0x7f, 0xc0,
  0x4e, 0x4a, 0x01, 0x0c, 0x7f, 0x34, 0x81, 0x14, 0x82, 0xc0, 0x8d, 0xfc,
  0x13, 0x7f, 0xfe, 0x81, 0xe0, 0xd5, 0xb8, 0x76, 0x7f, 0x23, 0x6a, 0xa5,
  0x0b, 0x60, 0x20, 0x81, 0x41, 0x13, 0x8e, 0x0d, 0xd0, 0xb2, 0x7f, 0xdf,
  0x07, 0x7f, 0xec, 0x00, 0x3b, 0xf9, 0x81, 0x4c, 0x26, 0x2d, 0x7f, 0x20,
  0xe7, 0x20, 0x3a, 0xaa, 0x7f, 0xff, 0xfa, 0x82, 0xfb, 0x4a, 0x7f, 0x1d,
  0x7e, 0xfa, 0xff, 0xff, 0x04, 0x00, 0x00, 0x00, 0x00, 0x01, 0x00, 0x00,
  0xc0, 0x4f, 0x00, 0x00, 0x81, 0xf8, 0xff, 0xff, 0x65, 0xb8, 0xff, 0xff,
  0x1e, 0x4e, 0x00, 0x00, 0x56, 0x2e, 0x00, 0x00, 0xae, 0x5d, 0x00, 0x00,
  0x81, 0x7b, 0x00, 0x00, 0x49, 0xd6, 0xff, 0xff, 0x00, 0x00, 0x00, 0x00,
  0x7d, 0xea, 0xff, 0xff, 0x9c, 0xeb, 0xff, 0xff, 0x5c, 0xf4, 0xff, 0xff,
  0x52, 0xe2, 0xff, 0xff, 0xd6, 0xe6, 0xff, 0xff, 0x52, 0xda, 0xff, 0xff,
  0xac, 0xfd, 0xff, 0xff, 0xd5, 0xf4, 0xff, 0xff, 0x37, 0xd5, 0xff, 0xff,
  0x00, 0x00, 0x00, 0x00, 0xb9, 0xe8, 0xff, 0xff, 0xfd, 0xf7, 0xff, 0xff,
  0xf2, 0xde, 0xff, 0xff, 0x77, 0x58, 0x00, 0x00, 0x70, 0xf6, 0xff, 0xff,
  0x47, 0xe4, 0xff, 0xff, 0x63, 0xea, 0xff, 0xff, 0xe0, 0x06, 0x00, 0x00,
  0x62, 0x12, 0x00, 0x00, 0xb7, 0xdd, 0xff, 0xff, 0x7c, 0xdb, 0xff, 0xff,
  0x11, 0xf2, 0xff, 0xff, 0x54, 0x21, 0x00, 0x00, 0xe1, 0x5d, 0x00, 0x00,
  0x5d, 0xf8, 0xff, 0xff, 0x0c, 0xf6, 0xff, 0xff, 0xdf, 0xfc, 0xff, 0xff,
  0x00, 0xcb, 0xff, 0xff, 0x9f, 0xe2, 0xff, 0xff, 0xcc, 0x43, 0x00, 0x00,
  0x61, 0x66, 0x00, 0x00, 0xdd, 0xf7, 0xff, 0xff, 0x82, 0xcb, 0xff, 0xff,
  0x83, 0xfe, 0xff, 0xff, 0x7a, 0x3a, 0x00, 0x00, 0x0f, 0x78, 0x00, 0x00,
  0xfd, 0xd5, 0xff, 0xff, 0x7f, 0xd3, 0xff, 0xff, 0x69, 0x55, 0x00, 0x00,
  0x9e, 0x39, 0x00, 0x00, 0x66, 0x48, 0x00, 0x00, 0x00, 0x00, 0x00, 0x00,
  0x44, 0xf7, 0xff, 0xff, 0x60, 0x36, 0x00, 0x00, 0xcf, 0x05, 0x00, 0x00,
  0xee, 0xf8, 0xff, 0xff, 0x33, 0x75, 0x00, 0x00, 0x06, 0xe3, 0xff, 0xff,
  0x31, 0xe6, 0xff, 0xff, 0x91, 0x5a, 0x00, 0x00, 0xca, 0xf1, 0xff, 0xff,
  0x92, 0xef, 0xff, 0xff, 0xee, 0x36, 0x00, 0x00, 0x34, 0x27, 0x00, 0x00,
  0x84, 0xef, 0xff, 0xff, 0x8a, 0xfb, 0xff, 0xff, 0x04, 0x00, 0x00, 0x00,
  0x00, 0x04, 0x00, 0x00, 0xe2, 0x76, 0x40, 0xc8, 0xd9, 0xd9, 0x1e, 0x42,
  0xec, 0x1e, 0x75, 0x4f, 0x6f, 0x4f, 0x45, 0x7f, 0x63, 0x36, 0x1b, 0x65,
  0xf3, 0x49, 0x0d, 0x40, 0x6d, 0x57, 0xe2, 0xfd, 0x3f, 0x32, 0x0a, 0xb9,
  0xe9, 0x74, 0x1b, 0x2a, 0x49, 0x35, 0x17, 0xea, 0x69, 0x09, 0x10, 0xe3,
  0x0f, 0x31, 0x10, 0xdd, 0xf4, 0xe8, 0xe7, 0x02, 0x13, 0xce, 0x38, 0xb4,
  0x5f, 0x52, 0xc8, 0x5c, 0x4e, 0x0a, 0xfd, 0x4e, 0xc2, 0xbc, 0x93, 0x15,
  0xa1, 0xab, 0x38, 0xc4, 0x98, 0xb3, 0x2d, 0x50, 0xd6, 0xf5, 0x7a, 0x2c,
  0xc6, 0x8e, 0x05, 0x43, 0x70, 0x57, 0xfd, 0x22, 0xad, 0xe4, 0xef, 0x68,
  0x1c, 0x98, 0x56, 0xb6, 0xa6, 0x62, 0x92, 0xf2, 0x0c, 0x2f, 0xf2, 0xd9,
  0xda, 0x48, 0x63, 0x9e, 0x1c, 0x96, 0xf5, 0xd7, 0x89, 0x61, 0x7f, 0xbb,
  0xaf, 0x19, 0xef, 0xd7, 0x8b, 0x09, 0x66, 0x55, 0x0c, 0x12, 0x62, 0xee,
  0x8e, 0x44, 0x8b, 0xaf, 0x91, 0x23, 0x86, 0xb9, 0x18, 0x2d, 0xb4, 0xd6,
  0x5b, 0xe3, 0x81, 0x12, 0xc6, 0xe5, 0x9c, 0x3d, 0xad, 0xd8, 0x61, 0xa8,
  0x2d, 0x35, 0xf0, 0x65, 0x59, 0x59, 0xd5, 0x31, 0xaa, 0x55, 0x36, 0xbc,
  0xba, 0x08, 0xe4, 0x38, 0x2d, 0xe3, 0xee, 0x99, 0x0b, 0x52, 0x1f, 0xd4,
  0xc3, 0x2a, 0xff, 0xb6, 0xbb, 0x04, 0x15, 0x4e, 0xc3, 0x3e, 0x4e, 0x2f,
  0x64, 0xef, 0x5a, 0xea, 0x77, 0x2a, 0x6e, 0x1a, 0x11, 0x76, 0xb6, 0xde,
  0xba, 0x82, 0x41, 0xe4, 0x44, 0x64, 0xe1, 0xd4, 0xfb, 0xb4, 0x23, 0x53,
  0x9b, 0x1a, 0xcf, 0x00, 0x10, 0x67, 0x4d, 0xe9, 0x63, 0x75, 0x33, 0x32,
  0xa8, 0x46, 0x4a, 0xb1, 0xbd, 0x1e, 0x91, 0x39, 0x75, 0x79, 0xde, 0x95,
  0x9c, 0xe5, 0xaa, 0x60, 0x86, 0x1a, 0x70, 0x95, 0xa4, 0x6c, 0x81, 0xe6,
  0x3a, 0xcf, 0x1d, 0xd2, 0x87, 0xad, 0xef, 0xd8, 0x35, 0x9a, 0xde, 0x3a,
  0x01, 0x2a, 0xf4, 0xbf, 0xf6, 0xee, 0x9e, 0xa8, 0xcf, 0x94, 0xd6, 0x99,
  0xb2, 0xfd, 0xfd, 0xa9, 0x0c, 0xe6, 0x2d, 0xe7, 0xb1, 0xaf, 0x07, 0x12,
  0xd3, 0xba, 0x05, 0x28, 0x15, 0xa7, 0x11, 0x16, 0xe9, 0xf2, 0x0c, 0x63,
  0x81, 0xd6, 0xe5, 0x0f, 0x26, 0xd7, 0xe6, 0xfb, 0x26, 0x14, 0xfc, 0xf0,
  0xec, 0x1c, 0xa6, 0x3d, 0xaa, 0xc9, 0x2d, 0xa8, 0xb7, 0xfe, 0x0a, 0xcf,
  0xca, 0x3d, 0x23, 0xfd, 0x11, 0xdc, 0x06, 0x2e, 0x12, 0x3d, 0x58, 0x57,
  0x3c, 0x5b, 0x57, 0x5a, 0x3c, 0x2b, 0x0f, 0x57, 0xdf, 0x2c, 0x0f, 0x41,
  0x4f, 0x35, 0xe2, 0xe2, 0x29, 0x40, 0x07, 0xbc, 0x04, 0x7f, 0x08, 0x17,
  0x0f, 0x49, 0xfc, 0xef, 0x6c, 0x2b, 0xfb, 0xe1, 0xec, 0x4b, 0x3e, 0x0a,
  0x16, 0xfc, 0x16, 0x03, 0x0b, 0xe7, 0x3a, 0xbd, 0x5f, 0x15, 0xe4, 0x4b,
  0x34, 0xec, 0x19, 0x35, 0x36, 0xc5, 0xc5, 0x22, 0x02, 0x33, 0x21, 0xbf,
  0x01, 0xcd, 0xce, 0xa3, 0xd1, 0xb0, 0xca, 0x9d, 0xae, 0xd5, 0xe5, 0x81,
  0xee, 0xca, 0x0f, 0xd2, 0xcc, 0xd2, 0x0e, 0x09, 0xdf, 0xb3, 0xf0, 0x2d,
  0x0d, 0xae, 0x0e, 0x15, 0xce, 0xbe, 0x15, 0x32, 0x95, 0xff, 0xfb, 0x17,
  0x14, 0xc6, 0xd0, 0x25, 0x1f, 0x23, 0x06, 0xdf, 0x10, 0x35, 0xc5, 0x39,
  0xbc, 0xb2, 0x3e, 0xa0, 0xbf, 0x19, 0xfd, 0xec, 0x50, 0xbd, 0xc3, 0x40,
  0x22, 0xc7, 0x26, 0x1a, 0x24, 0xd3, 0x2a, 0x9e, 0xaa, 0x09, 0x20, 0x09,
  0x3f, 0xa1, 0xb8, 0x9f, 0xec, 0x0c, 0xb3, 0x56, 0x51, 0x1c, 0x57, 0x1c,
  0x50, 0x0d, 0xeb, 0x10, 0xdf, 0x5b, 0x20, 0x23, 0xfc, 0x5a, 0xb2, 0x3f,
  0xdf, 0x9b, 0x50, 0xdf, 0x3d, 0x0d, 0xe0, 0x50, 0x9f, 0xf3, 0xd6, 0xa6,
  0xfa, 0x9d, 0x16, 0x81, 0xa1, 0x98, 0xc2, 0x49, 0xbd, 0xfa, 0x26, 0xf2,
  0x3e, 0xb6, 0xe5, 0x04, 0x11, 0x3a, 0x02, 0xc1, 0x17, 0xcf, 0xbf, 0x9e,
  0xc1, 0x85, 0xea, 0x94, 0xb6, 0xed, 0xe9, 0x89, 0x03, 0xe9, 0x18, 0xe2,
  0xcc, 0xc5, 0x00, 0x0e, 0xcd, 0xcd, 0xe6, 0x1b, 0x23, 0x81, 0x20, 0xe3,
  0xf8, 0xdd, 0x0e, 0x57, 0x8c, 0xee, 0x1a, 0x26, 0x1d, 0xb2, 0xdc, 0x17,
  0x1b, 0x28, 0xf9, 0xd7, 0x04, 0x30, 0xb3, 0x55, 0xb2, 0xe5, 0x1b, 0xaa,
  0xd1, 0x03, 0x1a, 0xc1, 0x30, 0xa7, 0xc4, 0x21, 0x2a, 0x21, 0x0b, 0xc2,
  0xfe, 0xbe, 0xa0, 0xb9, 0xac, 0xbc, 0xb5, 0xbb, 0xb9, 0xde, 0x19, 0x81,
  0xe8, 0xea, 0x1f, 0xd0, 0xba, 0xbb, 0x16, 0xf4, 0xea, 0xb7, 0x1e, 0x27,
  0x2d, 0x96, 0xeb, 0xff, 0xd6, 0xbb, 0x1a, 0x44, 0x8f, 0xe5, 0xee, 0x22,
  0xfe, 0xe1, 0xc9, 0x2a, 0x29, 0x17, 0x0d, 0x0e, 0x21, 0x35, 0xac, 0x4f,
  0xac, 0xbb, 0x41, 0xc0, 0xcf, 0x17, 0x06, 0xdd, 0x32, 0xb4, 0xec, 0x17,
  0x2c, 0x37, 0x27, 0xb5, 0x10, 0xf5, 0xcf, 0xc0, 0xab, 0xa6, 0xc3, 0x89,
  0x93, 0xfa, 0x16, 0x93, 0x0e, 0xb5, 0x35, 0xc3, 0xb8, 0xad, 0xf9, 0xff,
  0xec, 0xe1, 0xfd, 0x20, 0x25, 0x81, 0xf1, 0x09, 0xc8, 0xcc, 0x10, 0x28,
  0x99, 0xbe, 0x0e, 0x15, 0x21, 0xa3, 0xd6, 0x20, 0xf9, 0xf9, 0x19, 0x09,
  0x02, 0x17, 0x9a, 0x52, 0x96, 0xde, 0x3d, 0x91, 0xc1, 0x28, 0x0d, 0xc4,
  0x03, 0x99, 0xc6, 0x11, 0x23, 0x19, 0x17, 0xb4, 0xfd, 0xe4, 0xd2, 0xa7,
  0xad, 0x97, 0xf0, 0xcd, 0x9f, 0xda, 0xf3, 0x81, 0x06, 0xc9, 0x2b, 0xc9,
  0xba, 0xe8, 0xf8, 0x1b, 0x04, 0xdb, 0xf7, 0x1f, 0xfd, 0x9b, 0xea, 0x09,
  0xe8, 0xbc, 0x1c, 0x44, 0xa7, 0xde, 0xf0, 0x06, 0x0d, 0xe6, 0xf9, 0x0d,
  0x2d, 0x10, 0x19, 0x05, 0x20, 0x14, 0xcb, 0x2e, 0xcf, 0xc1, 0x35, 0x9c,
  0xc2, 0x01, 0xfd, 0xdd, 0xa6, 0x0a, 0x25, 0xd2, 0x50, 0xea, 0x9e, 0x2e,
  0xff, 0xd4, 0x9b, 0x2d, 0x7f, 0x36, 0x65, 0x5d, 0xa9, 0x5c, 0x48, 0x78,
  0xf1, 0xc7, 0x10, 0xa3, 0xd9, 0x22, 0x2e, 0xb5, 0xe1, 0xed, 0x28, 0x84,
  0x94, 0x8d, 0xb5, 0xcc, 0xe4, 0xe6, 0xd0, 0xce, 0xc6, 0xd1, 0xfc, 0x92,
  0xa0, 0xb3, 0xe0, 0xb0, 0xdf, 0x16, 0x2d, 0xd7, 0x07, 0xf6, 0xd2, 0x6c,
  0x75, 0x0f, 0x3e, 0x5e, 0xff, 0x3a, 0x9a, 0x9e, 0xda, 0x3e, 0x17, 0xd2,
  0xe1, 0xd0, 0x0e, 0x53, 0xff, 0x18, 0x3e, 0x70, 0x5f, 0x6e, 0x21, 0x7f,
  0x4c, 0x0f, 0xf7, 0x63, 0x0a, 0x23, 0x12, 0x2c, 0x67, 0x2b, 0xed, 0xda,
  0x3b, 0x4b, 0x00, 0xd8, 0xdd, 0x79, 0xe6, 0x29, 0x38, 0x3b, 0xf2, 0xd6,
  0x6a, 0x1e, 0x1a, 0x0d, 0xea, 0x58, 0x2a, 0xfc, 0xfb, 0x15, 0xe6, 0x1d,
  0x08, 0xd3, 0x2e, 0xd8, 0x5f, 0x45, 0xc1, 0x6a, 0x4d, 0x15, 0xf8, 0x33,
  0x95, 0x4a, 0x81, 0x05, 0x97, 0xea, 0xd0, 0xf8, 0xa1, 0x4f, 0xa8, 0x57,
  0xb2, 0x46, 0x6a, 0xc2, 0xdc, 0xd9, 0x6a, 0x03, 0x98, 0x63, 0xfb, 0x45,
  0x30, 0x19, 0xdd, 0x3d, 0x34, 0xa9, 0xf6, 0x71, 0x02, 0xe9, 0x61, 0xd3,
  0xdf, 0xd8, 0x86, 0x3a, 0x51, 0x9c, 0x9a, 0xc8, 0x17, 0xc2, 0xfe, 0xaa,
  0x83, 0x61, 0xd9, 0x88, 0xb1, 0xfc, 0xe1, 0x57, 0x50, 0x4f, 0x23, 0xa5,
  0x1e, 0xee, 0x53, 0x34, 0xcc, 0x5c, 0x4b, 0xda, 0x0f, 0xe1, 0x14, 0x38,
  0x0a, 0x3d, 0x6a, 0x57, 0x53, 0x4e, 0x3a, 0x75, 0x4e, 0x2a, 0xf1, 0x7f,
  0x10, 0x29, 0xdb, 0x4b, 0x68, 0x31, 0x02, 0xf0, 0x3c, 0x2f, 0xdf, 0xe0,
  0xe7, 0x4f, 0x1c, 0x18, 0x3b, 0x1a, 0xfb, 0xc3, 0x6f, 0x37, 0xe2, 0x20,
  0x1f, 0x5a, 0x39, 0xe5, 0x13, 0xde, 0x10, 0x38, 0xff, 0xcc, 0x3e, 0xdc,
  0x73, 0x3e, 0xe3, 0x62, 0x16, 0xf2, 0xf4, 0x26, 0x96, 0xff, 0xff, 0xff,
  0x04, 0x00, 0x00, 0x00, 0x40, 0x00, 0x00, 0x00, 0x66, 0xe9, 0xff, 0xff,
  0xfb, 0xfa, 0xff, 0xff, 0xaa, 0xf7, 0xff, 0xff, 0x0e, 0xfb, 0xff, 0xff,
  0x23, 0x1e, 0x00, 0x00, 0xfd, 0xeb, 0xff, 0xff, 0x9e, 0x1a, 0x00, 0x00,
  0x5f, 0xfd, 0xff, 0xff, 0xa5, 0x1e, 0x00, 0x00, 0x97, 0x19, 0x00, 0x00,
  0x69, 0x1c, 0x00, 0x00, 0xab, 0x18, 0x00, 0x00, 0x00, 0x00, 0x00, 0x00,
  0xc0, 0xec, 0xff, 0xff, 0x00, 0x00, 0x00, 0x00, 0x43, 0xec, 0xff, 0xff,
  0xe2, 0xff, 0xff, 0xff, 0x04, 0x00, 0x00, 0x00, 0x10, 0x00, 0x00, 0x00,
  0x4a, 0xf2, 0xf2, 0xd7, 0x81, 0x62, 0x9a, 0xec, 0xad, 0xac, 0xb2, 0x9d,
  0xe7, 0x50, 0xf4, 0x4a, 0x00, 0x00, 0x06, 0x00, 0x08, 0x00, 0x04, 0x00,
  0x06, 0x00, 0x00, 0x00, 0x04, 0x00, 0x00, 0x00, 0x04, 0x00, 0x00, 0x00,
  0x13, 0xfc, 0xff, 0xff, 0x54, 0xff, 0xff, 0xff, 0x58, 0xff, 0xff, 0xff,
  0x0f, 0x00, 0x00, 0x00, 0x4d, 0x4c, 0x49, 0x52, 0x20, 0x43, 0x6f, 0x6e,
  0x76, 0x65, 0x72, 0x74, 0x65, 0x64, 0x2e, 0x00, 0x01, 0x00, 0x00, 0x00,
  0x14, 0x00, 0x00, 0x00, 0x00, 0x00, 0x0e, 0x00, 0x18, 0x00, 0x14, 0x00,
  0x10, 0x00, 0x0c, 0x00, 0x08, 0x00, 0x04, 0x00, 0x0e, 0x00, 0x00, 0x00,
  0x14, 0x00, 0x00, 0x00, 0x1c, 0x00, 0x00, 0x00, 0x0c, 0x01, 0x00, 0x00,
  0x10, 0x01, 0x00, 0x00, 0x14, 0x01, 0x00, 0x00, 0x04, 0x00, 0x00, 0x00,
  0x6d, 0x61, 0x69, 0x6e, 0x00, 0x00, 0x00, 0x00, 0x04, 0x00, 0x00, 0x00,
  0xb4, 0x00, 0x00, 0x00, 0x6c, 0x00, 0x00, 0x00, 0x34, 0x00, 0x00, 0x00,
  0x10, 0x00, 0x00, 0x00, 0x00, 0x00, 0x0a, 0x00, 0x10, 0x00, 0x0c, 0x00,
  0x08, 0x00, 0x04, 0x00, 0x0a, 0x00, 0x00, 0x00, 0x0c, 0x00, 0x00, 0x00,
  0x10, 0x00, 0x00, 0x00, 0x01, 0x00, 0x00, 0x00, 0x01, 0x00, 0x00, 0x00,
  0x0a, 0x00, 0x00, 0x00, 0x01, 0x00, 0x00, 0x00, 0x09, 0x00, 0x00, 0x00,
  0x96, 0xff, 0xff, 0xff, 0x14, 0x00, 0x00, 0x00, 0x00, 0x00, 0x00, 0x08,
  0x10, 0x00, 0x00, 0x00, 0x14, 0x00, 0x00, 0x00, 0x04, 0x00, 0x04, 0x00,
  0x04, 0x00, 0x00, 0x00, 0x01, 0x00, 0x00, 0x00, 0x09, 0x00, 0x00, 0x00,
  0x03, 0x00, 0x00, 0x00, 0x08, 0x00, 0x00, 0x00, 0x02, 0x00, 0x00, 0x00,
  0x01, 0x00, 0x00, 0x00, 0xca, 0xff, 0xff, 0xff, 0x10, 0x00, 0x00, 0x00,
  0x00, 0x00, 0x00, 0x08, 0x10, 0x00, 0x00, 0x00, 0x14, 0x00, 0x00, 0x00,
  0xba, 0xff, 0xff, 0xff, 0x00, 0x00, 0x00, 0x01, 0x01, 0x00, 0x00, 0x00,
  0x08, 0x00, 0x00, 0x00, 0x03, 0x00, 0x00, 0x00, 0x07, 0x00, 0x00, 0x00,
  0x04, 0x00, 0x00, 0x00, 0x03, 0x00, 0x00, 0x00, 0x00, 0x00, 0x0e, 0x00,
  0x16, 0x00, 0x00, 0x00, 0x10, 0x00, 0x0c, 0x00, 0x0b, 0x00, 0x04, 0x00,
  0x0e, 0x00, 0x00, 0x00, 0x18, 0x00, 0x00, 0x00, 0x00, 0x00, 0x00, 0x08,
  0x18, 0x00, 0x00, 0x00, 0x1c, 0x00, 0x00, 0x00, 0x00, 0x00, 0x06, 0x00,
  0x08, 0x00, 0x07, 0x00, 0x06, 0x00, 0x00, 0x00, 0x00, 0x00, 0x00, 0x01,
  0x01, 0x00, 0x00, 0x00, 0x07, 0x00, 0x00, 0x00, 0x03, 0x00, 0x00, 0x00,
  0x00, 0x00, 0x00, 0x00, 0x06, 0x00, 0x00, 0x00, 0x05, 0x00, 0x00, 0x00,
  0x01, 0x00, 0x00, 0x00, 0x0a, 0x00, 0x00, 0x00, 0x01, 0x00, 0x00, 0x00,
  0x00, 0x00, 0x00, 0x00, 0x0b, 0x00, 0x00, 0x00, 0x80, 0x0c, 0x00, 0x00,
  0x08, 0x0c, 0x00, 0x00, 0x8c, 0x0b, 0x00, 0x00, 0x78, 0x0a, 0x00, 0x00,
  0x5c, 0x09, 0x00, 0x00, 0x08, 0x06, 0x00, 0x00, 0xac, 0x02, 0x00, 0x00,
  0xe8, 0x01, 0x00, 0x00, 0x24, 0x01, 0x00, 0x00, 0x80, 0x00, 0x00, 0x00,
  0x04, 0x00, 0x00, 0x00, 0xc2, 0xf3, 0xff, 0xff, 0x00, 0x00, 0x00, 0x01,
  0x18, 0x00, 0x00, 0x00, 0x20, 0x00, 0x00, 0x00, 0x3c, 0x00, 0x00, 0x00,
  0x0b, 0x00, 0x00, 0x00, 0x00, 0x00, 0x00, 0x09, 0x50, 0x00, 0x00, 0x00,
  0x02, 0x00, 0x00, 0x00, 0xff, 0xff, 0xff, 0xff, 0x01, 0x00, 0x00, 0x00,
  0xac, 0xf3, 0xff, 0xff, 0x08, 0x00, 0x00, 0x00, 0x10, 0x00, 0x00, 0x00,
  0x01, 0x00, 0x00, 0x00, 0x80, 0xff, 0xff, 0xff, 0xff, 0xff, 0xff, 0xff,
  0x01, 0x00, 0x00, 0x00, 0x00, 0x00, 0x80, 0x3b, 0x1b, 0x00, 0x00, 0x00,
  0x53, 0x74, 0x61, 0x74, 0x65, 0x66, 0x75, 0x6c, 0x50, 0x61, 0x72, 0x74,
  0x69, 0x74, 0x69, 0x6f, 0x6e, 0x65, 0x64, 0x43, 0x61, 0x6c, 0x6c, 0x5f,
  0x31, 0x3a, 0x30, 0x00, 0x02, 0x00, 0x00, 0x00, 0x01, 0x00, 0x00, 0x00,
  0x01, 0x00, 0x00, 0x00, 0x3a, 0xf4, 0xff, 0xff, 0x00, 0x00, 0x00, 0x01,
  0x18, 0x00, 0x00, 0x00, 0x20, 0x00, 0x00, 0x00, 0x40, 0x00, 0x00, 0x00,
  0x0a, 0x00, 0x00, 0x00, 0x00, 0x00, 0x00, 0x09, 0x78, 0x00, 0x00, 0x00,
  0x02, 0x00, 0x00, 0x00, 0xff, 0xff, 0xff, 0xff, 0x01, 0x00, 0x00, 0x00,
  0x24, 0xf4, 0xff, 0xff, 0x08, 0x00, 0x00, 0x00, 0x14, 0x00, 0x00, 0x00,
  0x01, 0x00, 0x00, 0x00, 0x29, 0x00, 0x00, 0x00, 0x00, 0x00, 0x00, 0x00,
  0x00, 0x00, 0x00, 0x00, 0x01, 0x00, 0x00, 0x00, 0x1b, 0x33, 0x1e, 0x3e,
  0x3e, 0x00, 0x00, 0x00, 0x73, 0x65, 0x71, 0x75, 0x65, 0x6e, 0x74, 0x69,
  0x61, 0x6c, 0x5f, 0x39, 0x5f, 0x31, 0x2f, 0x64, 0x65, 0x6e, 0x73, 0x65,
  0x5f, 0x33, 0x31, 0x5f, 0x31, 0x2f, 0x4d, 0x61, 0x74, 0x4d, 0x75, 0x6c,
  0x3b, 0x73, 0x65, 0x71, 0x75, 0x65, 0x6e, 0x74, 0x69, 0x61, 0x6c, 0x5f,
  0x39, 0x5f, 0x31, 0x2f, 0x64, 0x65, 0x6e, 0x73, 0x65, 0x5f, 0x33, 0x31,
  0x5f, 0x31, 0x2f, 0x41, 0x64, 0x64, 0x00, 0x00, 0x02, 0x00, 0x00, 0x00,
  0x01, 0x00, 0x00, 0x00, 0x01, 0x00, 0x00, 0x00, 0xda, 0xf4, 0xff, 0xff,
  0x00, 0x00, 0x00, 0x01, 0x18, 0x00, 0x00, 0x00, 0x20, 0x00, 0x00, 0x00,
  0x3c, 0x00, 0x00, 0x00, 0x09, 0x00, 0x00, 0x00, 0x00, 0x00, 0x00, 0x09,
  0x98, 0x00, 0x00, 0x00, 0x02, 0x00, 0x00, 0x00, 0xff, 0xff, 0xff, 0xff,
  0x10, 0x00, 0x00, 0x00, 0xc4, 0xf4, 0xff, 0xff, 0x08, 0x00, 0x00, 0x00,
  0x10, 0x00, 0x00, 0x00, 0x01, 0x00, 0x00, 0x00, 0x80, 0xff, 0xff, 0xff,
  0xff, 0xff, 0xff, 0xff, 0x01, 0x00, 0x00, 0x00, 0x28, 0x03, 0x6b, 0x3c,
  0x61, 0x00, 0x00, 0x00, 0x73, 0x65, 0x71, 0x75, 0x65, 0x6e, 0x74, 0x69,
  0x61, 0x6c, 0x5f, 0x39, 0x5f, 0x31, 0x2f, 0x64, 0x65, 0x6e, 0x73, 0x65,
  0x5f, 0x33, 0x30, 0x5f, 0x31, 0x2f, 0x4d, 0x61, 0x74, 0x4d, 0x75, 0x6c,
  0x3b, 0x73, 0x65, 0x71, 0x75, 0x65, 0x6e, 0x74, 0x69, 0x61, 0x6c, 0x5f,
  0x39, 0x5f, 0x31, 0x2f, 0x64, 0x65, 0x6e, 0x73, 0x65, 0x5f, 0x33, 0x30,
  0x5f, 0x31, 0x2f, 0x52, 0x65, 0x6c, 0x75, 0x3b, 0x73, 0x65, 0x71, 0x75,
  0x65, 0x6e, 0x74, 0x69, 0x61, 0x6c, 0x5f, 0x39, 0x5f, 0x31, 0x2f, 0x64,
  0x65, 0x6e, 0x73, 0x65, 0x5f, 0x33, 0x30, 0x5f, 0x31, 0x2f, 0x42, 0x69,
  0x61, 0x73, 0x41, 0x64, 0x64, 0x00, 0x00, 0x00, 0x02, 0x00, 0x00, 0x00,
  0x01, 0x00, 0x00, 0x00, 0x10, 0x00, 0x00, 0x00, 0x9a, 0xf5, 0xff, 0xff,
  0x00, 0x00, 0x00, 0x01, 0x18, 0x00, 0x00, 0x00, 0x20, 0x00, 0x00, 0x00,
  0x3c, 0x00, 0x00, 0x00, 0x08, 0x00, 0x00, 0x00, 0x00, 0x00, 0x00, 0x09,
  0x98, 0x00, 0x00, 0x00, 0x02, 0x00, 0x00, 0x00, 0xff, 0xff, 0xff, 0xff,
  0x40, 0x00, 0x00, 0x00, 0x84, 0xf5, 0xff, 0xff, 0x08, 0x00, 0x00, 0x00,
  0x10, 0x00, 0x00, 0x00, 0x01, 0x00, 0x00, 0x00, 0x80, 0xff, 0xff, 0xff,
  0xff, 0xff, 0xff, 0xff, 0x01, 0x00, 0x00, 0x00, 0x72, 0x39, 0x96, 0x3b,
  0x61, 0x00, 0x00, 0x00, 0x73, 0x65, 0x71, 0x75, 0x65, 0x6e, 0x74, 0x69,
  0x61, 0x6c, 0x5f, 0x39, 0x5f, 0x31, 0x2f, 0x64, 0x65, 0x6e, 0x73, 0x65,
  0x5f, 0x32, 0x39, 0x5f, 0x31, 0x2f, 0x4d, 0x61, 0x74, 0x4d, 0x75, 0x6c,
  0x3b, 0x73, 0x65, 0x71, 0x75, 0x65, 0x6e, 0x74, 0x69, 0x61, 0x6c, 0x5f,
  0x39, 0x5f, 0x31, 0x2f, 0x64, 0x65, 0x6e, 0x73, 0x65, 0x5f, 0x32, 0x39,
  0x5f, 0x31, 0x2f, 0x52, 0x65, 0x6c, 0x75, 0x3b, 0x73, 0x65, 0x71, 0x75,
  0x65, 0x6e, 0x74, 0x69, 0x61, 0x6c, 0x5f, 0x39, 0x5f, 0x31, 0x2f, 0x64,
  0x65, 0x6e, 0x73, 0x65, 0x5f, 0x32, 0x39, 0x5f, 0x31, 0x2f, 0x42, 0x69,
  0x61, 0x73, 0x41, 0x64, 0x64, 0x00, 0x00, 0x00, 0x02, 0x00, 0x00, 0x00,
  0x01, 0x00, 0x00, 0x00, 0x40, 0x00, 0x00, 0x00, 0xce, 0xf6, 0xff, 0xff,
  0x00, 0x00, 0x00, 0x01, 0x14, 0x00, 0x00, 0x00, 0x28, 0x03, 0x00, 0x00,
  0x07, 0x00, 0x00, 0x00, 0x00, 0x00, 0x00, 0x09, 0x34, 0x03, 0x00, 0x00,
  0x34, 0xf6, 0xff, 0xff, 0x08, 0x00, 0x00, 0x00, 0x0c, 0x02, 0x00, 0x00,
  0x40, 0x00, 0x00, 0x00, 0x00, 0x00, 0x00, 0x00, 0x00, 0x00, 0x00, 0x00,
  0x00, 0x00, 0x00, 0x00, 0x00, 0x00, 0x00, 0x00, 0x00, 0x00, 0x00, 0x00,
  0x00, 0x00, 0x00, 0x00, 0x00, 0x00, 0x00, 0x00, 0x00, 0x00, 0x00, 0x00,
  0x00, 0x00, 0x00, 0x00, 0x00, 0x00, 0x00, 0x00, 0x00, 0x00, 0x00, 0x00,
  0x00, 0x00, 0x00, 0x00, 0x00, 0x00, 0x00, 0x00, 0x00, 0x00, 0x00, 0x00,
  0x00, 0x00, 0x00, 0x00, 0x00, 0x00, 0x00, 0x00, 0x00, 0x00, 0x00, 0x00,
  0x00, 0x00, 0x00, 0x00, 0x00, 0x00, 0x00, 0x00, 0x00, 0x00, 0x00, 0x00,
  0x00, 0x00, 0x00, 0x00, 0x00, 0x00, 0x00, 0x00, 0x00, 0x00, 0x00, 0x00,
  0x00, 0x00, 0x00, 0x00, 0x00, 0x00, 0x00, 0x00, 0x00, 0x00, 0x00, 0x00,
  0x00, 0x00, 0x00, 0x00, 0x00, 0x00, 0x00, 0x00, 0x00, 0x00, 0x00, 0x00,
  0x00, 0x00, 0x00, 0x00, 0x00, 0x00, 0x00, 0x00, 0x00, 0x00, 0x00, 0x00,
  0x00, 0x00, 0x00, 0x00, 0x00, 0x00, 0x00, 0x00, 0x00, 0x00, 0x00, 0x00,
  0x00, 0x00, 0x00, 0x00, 0x00, 0x00, 0x00, 0x00, 0x00, 0x00, 0x00, 0x00,
  0x00, 0x00, 0x00, 0x00, 0x00, 0x00, 0x00, 0x00, 0x00, 0x00, 0x00, 0x00,
  0x00, 0x00, 0x00, 0x00, 0x00, 0x00, 0x00, 0x00, 0x00, 0x00, 0x00, 0x00,
  0x00, 0x00, 0x00, 0x00, 0x00, 0x00, 0x00, 0x00, 0x00, 0x00, 0x00, 0x00,
  0x00, 0x00, 0x00, 0x00, 0x00, 0x00, 0x00, 0x00, 0x00, 0x00, 0x00, 0x00,
  0x00, 0x00, 0x00, 0x00, 0x00, 0x00, 0x00, 0x00, 0x00, 0x00, 0x00, 0x00,
  0x00, 0x00, 0x00, 0x00, 0x00, 0x00, 0x00, 0x00, 0x00, 0x00, 0x00, 0x00,
  0x00, 0x00, 0x00, 0x00, 0x00, 0x00, 0x00, 0x00, 0x00, 0x00, 0x00, 0x00,
  0x00, 0x00, 0x00, 0x00, 0x00, 0x00, 0x00, 0x00, 0x00, 0x00, 0x00, 0x00,
  0x00, 0x00, 0x00, 0x00, 0x00, 0x00, 0x00, 0x00, 0x00, 0x00, 0x00, 0x00,
  0x00, 0x00, 0x00, 0x00, 0x00, 0x00, 0x00, 0x00, 0x00, 0x00, 0x00, 0x00,
  0x00, 0x00, 0x00, 0x00, 0x00, 0x00, 0x00, 0x00, 0x00, 0x00, 0x00, 0x00,
  0x00, 0x00, 0x00, 0x00, 0x00, 0x00, 0x00, 0x00, 0x00, 0x00, 0x00, 0x00,
  0x00, 0x00, 0x00, 0x00, 0x00, 0x00, 0x00, 0x00, 0x00, 0x00, 0x00, 0x00,
  0x00, 0x00, 0x00, 0x00, 0x00, 0x00, 0x00, 0x00, 0x00, 0x00, 0x00, 0x00,
  0x00, 0x00, 0x00, 0x00, 0x00, 0x00, 0x00, 0x00, 0x00, 0x00, 0x00, 0x00,
  0x00, 0x00, 0x00, 0x00, 0x00, 0x00, 0x00, 0x00, 0x00, 0x00, 0x00, 0x00,
  0x00, 0x00, 0x00, 0x00, 0x00, 0x00, 0x00, 0x00, 0x00, 0x00, 0x00, 0x00,
  0x00, 0x00, 0x00, 0x00, 0x00, 0x00, 0x00, 0x00, 0x00, 0x00, 0x00, 0x00,
  0x00, 0x00, 0x00, 0x00, 0x00, 0x00, 0x00, 0x00, 0x00, 0x00, 0x00, 0x00,
  0x00, 0x00, 0x00, 0x00, 0x00, 0x00, 0x00, 0x00, 0x00, 0x00, 0x00, 0x00,
  0x00, 0x00, 0x00, 0x00, 0x00, 0x00, 0x00, 0x00, 0x00, 0x00, 0x00, 0x00,
  0x00, 0x00, 0x00, 0x00, 0x00, 0x00, 0x00, 0x00, 0x00, 0x00, 0x00, 0x00,
  0x00, 0x00, 0x00, 0x00, 0x00, 0x00, 0x00, 0x00, 0x00, 0x00, 0x00, 0x00,
  0x00, 0x00, 0x00, 0x00, 0x00, 0x00, 0x00, 0x00, 0x00, 0x00, 0x00, 0x00,
  0x00, 0x00, 0x00, 0x00, 0x00, 0x00, 0x00, 0x00, 0x00, 0x00, 0x00, 0x00,
  0x00, 0x00, 0x00, 0x00, 0x00, 0x00, 0x00, 0x00, 0x00, 0x00, 0x00, 0x00,
  0x00, 0x00, 0x00, 0x00, 0x00, 0x00, 0x00, 0x00, 0x00, 0x00, 0x00, 0x00,
  0x00, 0x00, 0x00, 0x00, 0x00, 0x00, 0x00, 0x00, 0x00, 0x00, 0x00, 0x00,
  0x00, 0x00, 0x00, 0x00, 0x00, 0x00, 0x00, 0x00, 0x00, 0x00, 0x00, 0x00,
  0x00, 0x00, 0x00, 0x00, 0x00, 0x00, 0x00, 0x00, 0x00, 0x00, 0x00, 0x00,
  0x00, 0x00, 0x00, 0x00, 0x40, 0x00, 0x00, 0x00, 0xde, 0xbc, 0x07, 0x3b,
  0x05, 0xed, 0x83, 0x3b, 0x89, 0x55, 0xf3, 0x3a, 0x72, 0xc2, 0x11, 0x3b,
  0xa8, 0xc2, 0xd8, 0x3a, 0x1e, 0xab, 0x0b, 0x3b, 0xc7, 0x24, 0xa8, 0x3a,
  0xc4, 0x7e, 0x4b, 0x3b, 0x92, 0x1a, 0x0e, 0x3b, 0x11, 0x1c, 0x60, 0x3b,
  0x9f, 0x29, 0x8f, 0x3b, 0x38, 0x89, 0x89, 0x3b, 0x90, 0x7f, 0x70, 0x3b,
  0x80, 0x83, 0x88, 0x3b, 0xeb, 0x75, 0x4e, 0x3b, 0xb1, 0x10, 0xf4, 0x3b,
  0xf8, 0x5a, 0x60, 0x3b, 0x60, 0x8b, 0x31, 0x3b, 0xb3, 0xb1, 0xb2, 0x3a,
  0xf0, 0xa3, 0x95, 0x3b, 0xb4, 0x2d, 0x21, 0x3b, 0xd0, 0xc8, 0x49, 0x3b,
  0xff, 0x80, 0x06, 0x3b, 0xb1, 0x5b, 0x81, 0x3b, 0xa6, 0xcf, 0x4b, 0x3b,
  0x81, 0xbc, 0x8b, 0x3b, 0x0b, 0x80, 0x36, 0x3b, 0xf1, 0xf8, 0x42, 0x3b,
  0x83, 0x49, 0x59, 0x3b, 0xa5, 0x53, 0x55, 0x3b, 0xa4, 0x6a, 0x17, 0x3b,
  0x00, 0x5d, 0x4a, 0x3b, 0x3a, 0xdf, 0xf0, 0x3a, 0x44, 0xed, 0xe4, 0x3b,
  0x26, 0xc4, 0x17, 0x3b, 0x48, 0x50, 0x6e, 0x3b, 0xd1, 0x30, 0x0e, 0x3b,
  0x5a, 0xc4, 0x56, 0x3b, 0xaa, 0x0b, 0x06, 0x3b, 0x6b, 0xd4, 0xed, 0x3a,
  0xd9, 0xa0, 0xe7, 0x3b, 0x59, 0x43, 0x04, 0x3b, 0x9a, 0xdd, 0x08, 0x3b,
  0x9d, 0xa7, 0x15, 0x3b, 0xce, 0xed, 0xa7, 0x3a, 0x67, 0x46, 0x6e, 0x3b,
  0x6d, 0xd5, 0x48, 0x3b, 0xb1, 0xa1, 0xed, 0x3a, 0xe6, 0x22, 0x3e, 0x3b,
  0x35, 0xb7, 0x1f, 0x3b, 0xf8, 0x74, 0xc5, 0x3a, 0x71, 0x9f, 0x36, 0x3b,
  0xb0, 0xd1, 0xf8, 0x3a, 0xfc, 0x4b, 0x6f, 0x3b, 0xd6, 0x15, 0x69, 0x3b,
  0x05, 0x38, 0xed, 0x3a, 0xdf, 0xfb, 0x53, 0x3b, 0x2a, 0xad, 0x83, 0x3b,
  0xf4, 0x43, 0xff, 0x3a, 0xd7, 0xdf, 0xb1, 0x3b, 0xc6, 0xd3, 0x80, 0x3b,
  0x0d, 0x52, 0x15, 0x3b, 0xc7, 0x3e, 0x0b, 0x3b, 0x1c, 0x2d, 0x2f, 0x3b,
  0x12, 0x00, 0x00, 0x00, 0x74, 0x66, 0x6c, 0x2e, 0x70, 0x73, 0x65, 0x75,
  0x64, 0x6f, 0x5f, 0x71, 0x63, 0x6f, 0x6e, 0x73, 0x74, 0x35, 0x00, 0x00,
  0x02, 0x00, 0x00, 0x00, 0x40, 0x00, 0x00, 0x00, 0x05, 0x00, 0x00, 0x00,
  0x26, 0xfa, 0xff, 0xff, 0x00, 0x00, 0x00, 0x01, 0x14, 0x00, 0x00, 0x00,
  0x24, 0x03, 0x00, 0x00, 0x06, 0x00, 0x00, 0x00, 0x00, 0x00, 0x00, 0x02,
  0x30, 0x03, 0x00, 0x00, 0x8c, 0xf9, 0xff, 0xff, 0x08, 0x00, 0x00, 0x00,
  0x08, 0x02, 0x00, 0x00, 0x40, 0x00, 0x00, 0x00, 0x00, 0x00, 0x00, 0x00,
  0x00, 0x00, 0x00, 0x00, 0x00, 0x00, 0x00, 0x00, 0x00, 0x00, 0x00, 0x00,
  0x00, 0x00, 0x00, 0x00, 0x00, 0x00, 0x00, 0x00, 0x00, 0x00, 0x00, 0x00,
  0x00, 0x00, 0x00, 0x00, 0x00, 0x00, 0x00, 0x00, 0x00, 0x00, 0x00, 0x00,
  0x00, 0x00, 0x00, 0x00, 0x00, 0x00, 0x00, 0x00, 0x00, 0x00, 0x00, 0x00,
  0x00, 0x00, 0x00, 0x00, 0x00, 0x00, 0x00, 0x00, 0x00, 0x00, 0x00, 0x00,
  0x00, 0x00, 0x00, 0x00, 0x00, 0x00, 0x00, 0x00, 0x00, 0x00, 0x00, 0x00,
  0x00, 0x00, 0x00, 0x00, 0x00, 0x00, 0x00, 0x00, 0x00, 0x00, 0x00, 0x00,
  0x00, 0x00, 0x00, 0x00, 0x00, 0x00, 0x00, 0x00, 0x00, 0x00, 0x00, 0x00,
  0x00, 0x00, 0x00, 0x00, 0x00, 0x00, 0x00, 0x00, 0x00, 0x00, 0x00, 0x00,
  0x00, 0x00, 0x00, 0x00, 0x00, 0x00, 0x00, 0x00, 0x00, 0x00, 0x00, 0x00,
  0x00, 0x00, 0x00, 0x00, 0x00, 0x00, 0x00, 0x00, 0x00, 0x00, 0x00, 0x00,
  0x00, 0x00, 0x00, 0x00, 0x00, 0x00, 0x00, 0x00, 0x00, 0x00, 0x00, 0x00,
  0x00, 0x00, 0x00, 0x00, 0x00, 0x00, 0x00, 0x00, 0x00, 0x00, 0x00, 0x00,
  0x00, 0x00, 0x00, 0x00, 0x00, 0x00, 0x00, 0x00, 0x00, 0x00, 0x00, 0x00,
  0x00, 0x00, 0x00, 0x00, 0x00, 0x00, 0x00, 0x00, 0x00, 0x00, 0x00, 0x00,
  0x00, 0x00, 0x00, 0x00, 0x00, 0x00, 0x00, 0x00, 0x00, 0x00, 0x00, 0x00,
  0x00, 0x00, 0x00, 0x00, 0x00, 0x00, 0x00, 0x00, 0x00, 0x00, 0x00, 0x00,
  0x00, 0x00, 0x00, 0x00, 0x00, 0x00, 0x00, 0x00, 0x00, 0x00, 0x00, 0x00,
  0x00, 0x00, 0x00, 0x00, 0x00, 0x00, 0x00, 0x00, 0x00, 0x00, 0x00, 0x00,
  0x00, 0x00, 0x00, 0x00, 0x00, 0x00, 0x00, 0x00, 0x00, 0x00, 0x00, 0x00,
  0x00, 0x00, 0x00, 0x00, 0x00, 0x00, 0x00, 0x00, 0x00, 0x00, 0x00, 0x00,
  0x00, 0x00, 0x00, 0x00, 0x00, 0x00, 0x00, 0x00, 0x00, 0x00, 0x00, 0x00,
  0x00, 0x00, 0x00, 0x00, 0x00, 0x00, 0x00, 0x00, 0x00, 0x00, 0x00, 0x00,
  0x00, 0x00, 0x00, 0x00, 0x00, 0x00, 0x00, 0x00, 0x00, 0x00, 0x00, 0x00,
  0x00, 0x00, 0x00, 0x00, 0x00, 0x00, 0x00, 0x00, 0x00, 0x00, 0x00, 0x00,
  0x00, 0x00, 0x00, 0x00, 0x00, 0x00, 0x00, 0x00, 0x00, 0x00, 0x00, 0x00,
  0x00, 0x00, 0x00, 0x00, 0x00, 0x00, 0x00, 0x00, 0x00, 0x00, 0x00, 0x00,
  0x00, 0x00, 0x00, 0x00, 0x00, 0x00, 0x00, 0x00, 0x00, 0x00, 0x00, 0x00,
  0x00, 0x00, 0x00, 0x00, 0x00, 0x00, 0x00, 0x00, 0x00, 0x00, 0x00, 0x00,
  0x00, 0x00, 0x00, 0x00, 0x00, 0x00, 0x00, 0x00, 0x00, 0x00, 0x00, 0x00,
  0x00, 0x00, 0x00, 0x00, 0x00, 0x00, 0x00, 0x00, 0x00, 0x00, 0x00, 0x00,
  0x00, 0x00, 0x00, 0x00, 0x00, 0x00, 0x00, 0x00, 0x00, 0x00, 0x00, 0x00,
  0x00, 0x00, 0x00, 0x00, 0x00, 0x00, 0x00, 0x00, 0x00, 0x00, 0x00, 0x00,
  0x00, 0x00, 0x00, 0x00, 0x00, 0x00, 0x00, 0x00, 0x00, 0x00, 0x00, 0x00,
  0x00, 0x00, 0x00, 0x00, 0x00, 0x00, 0x00, 0x00, 0x00, 0x00, 0x00, 0x00,
  0x00, 0x00, 0x00, 0x00, 0x00, 0x00, 0x00, 0x00, 0x00, 0x00, 0x00, 0x00,
  0x00, 0x00, 0x00, 0x00, 0x00, 0x00, 0x00, 0x00, 0x00, 0x00, 0x00, 0x00,
  0x00, 0x00, 0x00, 0x00, 0x00, 0x00, 0x00, 0x00, 0x00, 0x00, 0x00, 0x00,
  0x00, 0x00, 0x00, 0x00, 0x00, 0x00, 0x00, 0x00, 0x00, 0x00, 0x00, 0x00,
  0x00, 0x00, 0x00, 0x00, 0x00, 0x00, 0x00, 0x00, 0x00, 0x00, 0x00, 0x00,
  0x00, 0x00, 0x00, 0x00, 0x00, 0x00, 0x00, 0x00, 0x00, 0x00, 0x00, 0x00,
  0x00, 0x00, 0x00, 0x00, 0x00, 0x00, 0x00, 0x00, 0x00, 0x00, 0x00, 0x00,
  0x00, 0x00, 0x00, 0x00, 0x40, 0x00, 0x00, 0x00, 0xe9, 0xd1, 0x87, 0x37,
  0x79, 0x01, 0x04, 0x38, 0x42, 0x7b, 0x73, 0x37, 0x0b, 0xd9, 0x91, 0x37,
  0x43, 0xe4, 0x58, 0x37, 0xc5, 0xc0, 0x8b, 0x37, 0xd8, 0x3e, 0x28, 0x37,
  0x50, 0x9e, 0xcb, 0x37, 0x9a, 0x30, 0x8e, 0x37, 0xcf, 0x3e, 0xe0, 0x37,
  0xd1, 0x3f, 0x0f, 0x38, 0x8a, 0x9e, 0x09, 0x38, 0xd9, 0xa4, 0xf0, 0x37,
  0xaa, 0x98, 0x08, 0x38, 0xed, 0x95, 0xce, 0x37, 0x87, 0x36, 0x74, 0x38,
  0xc0, 0x7d, 0xe0, 0x37, 0xe6, 0xa6, 0xb1, 0x37, 0x67, 0xcd, 0x32, 0x37,
  0x23, 0xbb, 0x15, 0x38, 0xb1, 0x46, 0xa1, 0x37, 0x18, 0xe8, 0xc9, 0x37,
  0xd9, 0x95, 0x86, 0x37, 0xbf, 0x6f, 0x01, 0x38, 0x3f, 0xef, 0xcb, 0x37,
  0x2b, 0xd2, 0x0b, 0x38, 0x56, 0x9c, 0xb6, 0x37, 0x2b, 0x17, 0xc3, 0x37,
  0x33, 0x6b, 0xd9, 0x37, 0xb7, 0x74, 0xd5, 0x37, 0x1d, 0x82, 0x97, 0x37,
  0x5f, 0x7c, 0xca, 0x37, 0x92, 0x04, 0x71, 0x37, 0xc2, 0x10, 0x65, 0x38,
  0xad, 0xdb, 0x97, 0x37, 0x3a, 0x75, 0xee, 0x37, 0xdc, 0x46, 0x8e, 0x37,
  0xa6, 0xe5, 0xd6, 0x37, 0x72, 0x20, 0x86, 0x37, 0x4a, 0xf9, 0x6d, 0x37,
  0xc2, 0xc4, 0x67, 0x38, 0xda, 0x57, 0x84, 0x37, 0xd2, 0xf2, 0x88, 0x37,
  0xd0, 0xbe, 0x95, 0x37, 0xd7, 0x07, 0x28, 0x37, 0x58, 0x6b, 0xee, 0x37,
  0x90, 0xf4, 0xc8, 0x37, 0x88, 0xc6, 0x6d, 0x37, 0x60, 0x40, 0xbe, 0x37,
  0xf8, 0xcf, 0x9f, 0x37, 0x95, 0x93, 0x45, 0x37, 0xc1, 0xbb, 0xb6, 0x37,
  0x43, 0xf8, 0x78, 0x37, 0x15, 0x71, 0xef, 0x37, 0xf9, 0x39, 0xe9, 0x37,
  0xcc, 0x5c, 0x6d, 0x37, 0xbc, 0x1c, 0xd4, 0x37, 0x94, 0xc1, 0x03, 0x38,
  0x87, 0x6b, 0x7f, 0x37, 0x6a, 0xfb, 0x31, 0x38, 0xbf, 0xe7, 0x00, 0x38,
  0x33, 0x69, 0x95, 0x37, 0x5d, 0x54, 0x8b, 0x37, 0x44, 0x48, 0xaf, 0x37,
  0x12, 0x00, 0x00, 0x00, 0x74, 0x66, 0x6c, 0x2e, 0x70, 0x73, 0x65, 0x75,
  0x64, 0x6f, 0x5f, 0x71, 0x63, 0x6f, 0x6e, 0x73, 0x74, 0x34, 0x00, 0x00,
  0x01, 0x00, 0x00, 0x00, 0x40, 0x00, 0x00, 0x00, 0x76, 0xfd, 0xff, 0xff,
  0x00, 0x00, 0x00, 0x01, 0x14, 0x00, 0x00, 0x00, 0xe8, 0x00, 0x00, 0x00,
  0x05, 0x00, 0x00, 0x00, 0x00, 0x00, 0x00, 0x09, 0xf4, 0x00, 0x00, 0x00,
  0xdc, 0xfc, 0xff, 0xff, 0x08, 0x00, 0x00, 0x00, 0x8c, 0x00, 0x00, 0x00,
  0x10, 0x00, 0x00, 0x00, 0x00, 0x00, 0x00, 0x00, 0x00, 0x00, 0x00, 0x00,
  0x00, 0x00, 0x00, 0x00, 0x00, 0x00, 0x00, 0x00, 0x00, 0x00, 0x00, 0x00,
  0x00, 0x00, 0x00, 0x00, 0x00, 0x00, 0x00, 0x00, 0x00, 0x00, 0x00, 0x00,
  0x00, 0x00, 0x00, 0x00, 0x00, 0x00, 0x00, 0x00, 0x00, 0x00, 0x00, 0x00,
  0x00, 0x00, 0x00, 0x00, 0x00, 0x00, 0x00, 0x00, 0x00, 0x00, 0x00, 0x00,
  0x00, 0x00, 0x00, 0x00, 0x00, 0x00, 0x00, 0x00, 0x00, 0x00, 0x00, 0x00,
  0x00, 0x00, 0x00, 0x00, 0x00, 0x00, 0x00, 0x00, 0x00, 0x00, 0x00, 0x00,
  0x00, 0x00, 0x00, 0x00, 0x00, 0x00, 0x00, 0x00, 0x00, 0x00, 0x00, 0x00,
  0x00, 0x00, 0x00, 0x00, 0x00, 0x00, 0x00, 0x00, 0x00, 0x00, 0x00, 0x00,
  0x00, 0x00, 0x00, 0x00, 0x00, 0x00, 0x00, 0x00, 0x00, 0x00, 0x00, 0x00,
  0x00, 0x00, 0x00, 0x00, 0x00, 0x00, 0x00, 0x00, 0x00, 0x00, 0x00, 0x00,
  0x00, 0x00, 0x00, 0x00, 0x10, 0x00, 0x00, 0x00, 0x4c, 0xd2, 0x04, 0x3c,
  0x95, 0xdc, 0x08, 0x3b, 0xb9, 0x23, 0x1c, 0x3b, 0xf4, 0x2a, 0x0c, 0x3b,
  0x01, 0x50, 0x12, 0x3c, 0x62, 0xf9, 0x08, 0x3c, 0x06, 0x6b, 0x11, 0x3c,
  0x16, 0xe5, 0x2f, 0x3b, 0x2e, 0x70, 0x13, 0x3c, 0xfa, 0x0c, 0x12, 0x3c,
  0xa1, 0xbc, 0x07, 0x3c, 0x06, 0xc1, 0x0f, 0x3c, 0xb3, 0xd2, 0x07, 0x3b,
  0x0f, 0x6f, 0x11, 0x3c, 0xbf, 0x02, 0x0d, 0x3b, 0x11, 0x0c, 0x0d, 0x3c,
  0x12, 0x00, 0x00, 0x00, 0x74, 0x66, 0x6c, 0x2e, 0x70, 0x73, 0x65, 0x75,
  0x64, 0x6f, 0x5f, 0x71, 0x63, 0x6f, 0x6e, 0x73, 0x74, 0x33, 0x00, 0x00,
  0x02, 0x00, 0x00, 0x00, 0x10, 0x00, 0x00, 0x00, 0x40, 0x00, 0x00, 0x00,
  0x8e, 0xfe, 0xff, 0xff, 0x00, 0x00, 0x00, 0x01, 0x14, 0x00, 0x00, 0x00,
  0xe4, 0x00, 0x00, 0x00, 0x04, 0x00, 0x00, 0x00, 0x00, 0x00, 0x00, 0x02,
  0xf0, 0x00, 0x00, 0x00, 0xf4, 0xfd, 0xff, 0xff, 0x08, 0x00, 0x00, 0x00,
  0x88, 0x00, 0x00, 0x00, 0x10, 0x00, 0x00, 0x00, 0x00, 0x00, 0x00, 0x00,
  0x00, 0x00, 0x00, 0x00, 0x00, 0x00, 0x00, 0x00, 0x00, 0x00, 0x00, 0x00,
  0x00, 0x00, 0x00, 0x00, 0x00, 0x00, 0x00, 0x00, 0x00, 0x00, 0x00, 0x00,
  0x00, 0x00, 0x00, 0x00, 0x00, 0x00, 0x00, 0x00, 0x00, 0x00, 0x00, 0x00,
  0x00, 0x00, 0x00, 0x00, 0x00, 0x00, 0x00, 0x00, 0x00, 0x00, 0x00, 0x00,
  0x00, 0x00, 0x00, 0x00, 0x00, 0x00, 0x00, 0x00, 0x00, 0x00, 0x00, 0x00,
  0x00, 0x00, 0x00, 0x00, 0x00, 0x00, 0x00, 0x00, 0x00, 0x00, 0x00, 0x00,
  0x00, 0x00, 0x00, 0x00, 0x00, 0x00, 0x00, 0x00, 0x00, 0x00, 0x00, 0x00,
  0x00, 0x00, 0x00, 0x00, 0x00, 0x00, 0x00, 0x00, 0x00, 0x00, 0x00, 0x00,
  0x00, 0x00, 0x00, 0x00, 0x00, 0x00, 0x00, 0x00, 0x00, 0x00, 0x00, 0x00,
  0x00, 0x00, 0x00, 0x00, 0x00, 0x00, 0x00, 0x00, 0x00, 0x00, 0x00, 0x00,
  0x00, 0x00, 0x00, 0x00, 0x10, 0x00, 0x00, 0x00, 0x0d, 0xe2, 0x1b, 0x38,
  0xeb, 0x9f, 0x20, 0x37, 0xf0, 0x3f, 0x37, 0x37, 0x3e, 0x81, 0x24, 0x37,
  0x6b, 0xb7, 0x2b, 0x38, 0xb8, 0xc1, 0x20, 0x38, 0xae, 0xaa, 0x2a, 0x38,
  0x66, 0x6f, 0x4e, 0x37, 0xa1, 0x09, 0x2d, 0x38, 0xc1, 0x68, 0x2b, 0x38,
  0xf8, 0x4d, 0x1f, 0x38, 0xb7, 0xb6, 0x28, 0x38, 0xdf, 0x67, 0x1f, 0x37,
  0x6b, 0xaf, 0x2a, 0x38, 0x81, 0x7e, 0x25, 0x37, 0x71, 0x89, 0x25, 0x38,
  0x12, 0x00, 0x00, 0x00, 0x74, 0x66, 0x6c, 0x2e, 0x70, 0x73, 0x65, 0x75,
  0x64, 0x6f, 0x5f, 0x71, 0x63, 0x6f, 0x6e, 0x73, 0x74, 0x32, 0x00, 0x00,
  0x01, 0x00, 0x00, 0x00, 0x10, 0x00, 0x00, 0x00, 0x9e, 0xff, 0xff, 0xff,
  0x00, 0x00, 0x00, 0x01, 0x14, 0x00, 0x00, 0x00, 0x30, 0x00, 0x00, 0x00,
  0x03, 0x00, 0x00, 0x00, 0x00, 0x00, 0x00, 0x09, 0x3c, 0x00, 0x00, 0x00,
  0x04, 0xff, 0xff, 0xff, 0x08, 0x00, 0x00, 0x00, 0x10, 0x00, 0x00, 0x00,
  0x01, 0x00, 0x00, 0x00, 0x00, 0x00, 0x00, 0x00, 0x00, 0x00, 0x00, 0x00,
  0x01, 0x00, 0x00, 0x00, 0x12, 0xbb, 0x67, 0x3c, 0x12, 0x00, 0x00, 0x00,
  0x74, 0x66, 0x6c, 0x2e, 0x70, 0x73, 0x65, 0x75, 0x64, 0x6f, 0x5f, 0x71,
  0x63, 0x6f, 0x6e, 0x73, 0x74, 0x31, 0x00, 0x00, 0x02, 0x00, 0x00, 0x00,
  0x01, 0x00, 0x00, 0x00, 0x10, 0x00, 0x00, 0x00, 0x00, 0x00, 0x16, 0x00,
  0x1c, 0x00, 0x18, 0x00, 0x17, 0x00, 0x10, 0x00, 0x0c, 0x00, 0x08, 0x00,
  0x00, 0x00, 0x00, 0x00, 0x00, 0x00, 0x07, 0x00, 0x16, 0x00, 0x00, 0x00,
  0x00, 0x00, 0x00, 0x01, 0x14, 0x00, 0x00, 0x00, 0x30, 0x00, 0x00, 0x00,
  0x02, 0x00, 0x00, 0x00, 0x00, 0x00, 0x00, 0x02, 0x3c, 0x00, 0x00, 0x00,
  0x7c, 0xff, 0xff, 0xff, 0x08, 0x00, 0x00, 0x00, 0x10, 0x00, 0x00, 0x00,
  0x01, 0x00, 0x00, 0x00, 0x00, 0x00, 0x00, 0x00, 0x00, 0x00, 0x00, 0x00,
  0x01, 0x00, 0x00, 0x00, 0x95, 0xbb, 0x54, 0x39, 0x11, 0x00, 0x00, 0x00,
  0x74, 0x66, 0x6c, 0x2e, 0x70, 0x73, 0x65, 0x75, 0x64, 0x6f, 0x5f, 0x71,
  0x63, 0x6f, 0x6e, 0x73, 0x74, 0x00, 0x00, 0x00, 0x01, 0x00, 0x00, 0x00,
  0x01, 0x00, 0x00, 0x00, 0x00, 0x00, 0x16, 0x00, 0x20, 0x00, 0x1c, 0x00,
  0x1b, 0x00, 0x14, 0x00, 0x10, 0x00, 0x0c, 0x00, 0x00, 0x00, 0x00, 0x00,
  0x08, 0x00, 0x07, 0x00, 0x16, 0x00, 0x00, 0x00, 0x00, 0x00, 0x00, 0x01,
  0x18, 0x00, 0x00, 0x00, 0x2c, 0x00, 0x00, 0x00, 0x48, 0x00, 0x00, 0x00,
  0x01, 0x00, 0x00, 0x00, 0x00, 0x00, 0x00, 0x09, 0x60, 0x00, 0x00, 0x00,
  0x02, 0x00, 0x00, 0x00, 0xff, 0xff, 0xff, 0xff, 0x05, 0x00, 0x00, 0x00,
  0x0c, 0x00, 0x0c, 0x00, 0x00, 0x00, 0x00, 0x00, 0x08, 0x00, 0x04, 0x00,
  0x0c, 0x00, 0x00, 0x00, 0x08, 0x00, 0x00, 0x00, 0x10, 0x00, 0x00, 0x00,
  0x01, 0x00, 0x00, 0x00, 0xff, 0xff, 0xff, 0xff, 0xff, 0xff, 0xff, 0xff,
  0x01, 0x00, 0x00, 0x00, 0xd8, 0x13, 0x00, 0x3c, 0x1f, 0x00, 0x00, 0x00,
  0x73, 0x65, 0x72, 0x76, 0x69, 0x6e, 0x67, 0x5f, 0x64, 0x65, 0x66, 0x61,
  0x75, 0x6c, 0x74, 0x5f, 0x69, 0x6e, 0x70, 0x75, 0x74, 0x5f, 0x6c, 0x61,
  0x79, 0x65, 0x72, 0x5f, 0x39, 0x3a, 0x30, 0x00, 0x02, 0x00, 0x00, 0x00,
  0x01, 0x00, 0x00, 0x00, 0x05, 0x00, 0x00, 0x00, 0x02, 0x00, 0x00, 0x00,
  0x24, 0x00, 0x00, 0x00, 0x04, 0x00, 0x00, 0x00, 0xf0, 0xff, 0xff, 0xff,
  0x0e, 0x00, 0x00, 0x00, 0x02, 0x00, 0x00, 0x00, 0x00, 0x00, 0x00, 0x0e,
  0x0c, 0x00, 0x10, 0x00, 0x0f, 0x00, 0x00, 0x00, 0x08, 0x00, 0x04, 0x00,
  0x0c, 0x00, 0x00, 0x00, 0x09, 0x00, 0x00, 0x00, 0x04, 0x00, 0x00, 0x00,
  0x00, 0x00, 0x00, 0x09
};
unsigned int _content_model_tflite_len = 6064;
